7bdef7bdef7bdef7bdef
5de8c4c05b94a9101ce3
951b100033ed89795427
bcb50418a016fa5bbc27
69ed511e64b604485a97
88460298002da9ca0332
2d08bc74a50191b90b90
c68350bf3060e968de25
3c062ba9123841291987
6409a306a7102f2cc833
60f258591591816a8292
0d304898e7b8a07c88d1
2b2161c010a94b7a4de2
88cb5a9e9704cf632055
7917db0c1a0182020841
0d6a01f645b46d3e9c3c
50a02aa9934d40610782
40b77286479c4fb8e31a
1bcb5ad6f4ad695c7411
88819950a26d2081588f
91ad5bc8c5259f591f94
2ae028175210ab0a11a6
25eb06a61194cc4bdc20
964b42c934400b464446
9dca41002515ec0a94c0
09a90c66e38166893133
b621748cb0648b00d833
b197639f8335461b498a
56b021ee279dcdbe8251
008438348733d1194677
bd873b1a5794a8a84ef2
64e23ac1e20c690c997a
