7bdef7bdef7bdef7bdef
9dc05269832f41594068
01edca1b5555c8fb882f
4c861ad577b9a0908407
0c6f6a2a9753c0314086
146925caa139d222dc21
818c41a931076cd490c3
1ac2124c83ada0445510
818f65846ced65879fb5
88da2354c39560c4ca8f
39e512ded230225a1a35
95861e95ef01e864ecea
9088714a30bb0f72eab9
05376a0207c5277782b5
19c07089a115692342d5
155efdc4e6a452519606
55e96b24f0bc2b69a6b2
342d29cce705cf534253
15c32b82e4090135c6e5
a88b058c35b50f53c422
b6a968c530399e7b44f7
1cb37c2ac5df01b3c3a1
3e7240dcd645242d52ed
bb2156108bbc22418eb1
212d990494bd69d95279
9851118fb13a2f2d4a90
5daac98b9904087a08a7
14ec121a678f43464699
009f4e9d599332c84cad
2566a3dc23659723ce03
31240364709cdb69c2fc
1cc55080f301744010e6
