7bdef7bdef7bdef7bdef
42c07b4e3dd555753ee2
7d381ad46f5efab62421
8ded4552ea78069396cb
a499bc20f8e245abcb41
3286a1e81db352a30c51
0854d22716611154318b
3d9611b3b8961e7ed78b
688d530e558401aa3e06
617569180c55171aebbc
2bde03d3757dc268bd3c
11f4c3e7b6d6dfab251d
ee293cbc15c49243a64b
ae24685abcc6f34a573b
63faa82c64dac1c13422
ccd356a6af7ee2736360
d420690396b24f0cea18
b94d0b4a6d65139e1ea9
10ae196419e742a04d71
12986e870ccbdf53b09c
8e7714b0ebdbcf989ef5
ce70ab177c46cf0e872c
83f330e91490b54bb472
6108bbb22a1a4fa61eec
091f7ad3b2a5c9cdb218
1f58b0be5a6d20425b32
c82045e04ad9e614473d
5c7a1a4774caf3864d3c
cb18d2563d4338a7f0cd
9653c80d097e3ab565ac
9b2fc26bb322581af78b
59b497ad1b36474e4db6
