7bdef7bdef7bdef7bdef
01c07b7286d555723ee2
21932186b55dee682421
08431bda8aa5d4f00c50
30c51a4972a84e7488b7
442063106a4c41db3524
ed46b0849320eb681115
a3e063d9611b3b5961e7
8d623688d530e5583132
3a8e7944b7b48c089686
ae656187a57bc07a193b
ad64221c528c2ec3dcba
b5414dda8081f149dde0
8186701c2268455a48d0
ac8557bf7139a9149465
94d57a5ac93c2f0ada69
b94d0b4a7339c173d4d0
088570cae0b902404d71
3dea22c1630d6d43d4f1
e86daa5a314c0e679ed1
bb472cdf0ab177c06cf0
ac4f9c90373591490b54
9e6ec8558422ef089063
a4084b6641252f5a7654
29e6144463ec4e8bcb52
a6576ab262e641021e82
2b453b048699e3d0d191
80c027d3a75664ccb213
bf0959a8f708d965c8f3
398c4900d91c2736da70
41c73154203cc05d1004
36b83ac65020ad7c5c11
