7bdef7bdef7bdef7bdef
326430d6abbdcd048420
08637b5154ba9e018a04
18a3492e5509ce9116e1
840c620d49883b66a486
a8d61092641d6d0222a8
7c0c7b2c23676b2c3cfd
ac46d11aa61cab062654
51cf2896f6918112d0d1
ccac30f4af780f432767
ac84438a5185d87b9755
a829bb50103e293bbc15
30ce03844d08ab491a16
90aaf7ee273522928cb0
9aaf4b592785e15b4d35
29a1694e67382e7a9a12
10ae195c17204809ae37
bd44582c61ada87a9e21
0db54b462981ccf3da27
68e59be1562ef80d9e1d
89f39206e6b229216a97
cdd90ab0845de1120c75
81096cc824a5eb4eca93
3cc2888c7d89d1796a54
caed564c5cc82043d045
68a76090d33c7a1a3234
1804fa74eacc99964265
e12b351ee11b2cb91e70
3189201b2384e6db4e17
38e62a8407980ba20087
d70758ca0415af8b8228
ed6b2d4c624f2721d8e6
