7bdef7bdef7bdef7bdef
9c24315ee28a832090f8
c1412198b36c65b3469b
3ca430d224bc09611c20
19e80899208f6e1e4837
d56a7b8b728aa38bc880
3ce755dab73064208b02
e0e71a40ed798e710897
8d758a1a94245f389547
56a659f0920983109021
4ea77092b7690b52cb8b
b3e93596e8ad483ad6d7
2be55900d921c72ad33a
3109064df01a417164b7
68ba6aec6110fa760c15
ac0b50a084984d408047
312a9260951ae0a9d26a
af680cb4d08843034e86
ec6709d0c2dc432d9216
c9ec61a4720d0e0220b2
25e582089a366d23d286
80771176c6002f2540c4
96c30b5697bd90cbdea6
29cd50de07654aa38ea7
916bced9a05a6c4a0ca5
26e662154ca8e939d527
27786a5a93001740bd91
8d6e3994c31586714072
78aa6ad0e7964908c477
a18a1219f62ece21493b
a94156c42510c471d245
bde8488a410c4c65b2a7
