7bdef7bdef7bdef7bdef
39ce739ce739ce739ce7
bdef7bdef7bdef7bdef7
08421084210842108421
10842108421084210842
21084210842108421084
42108421084210842108
4a5294a5294a5294a529
5294a5294a5294a5294a
5ad6b5ad6b5ad6b5ad6b
6318c6318c6318c6318c
6b5ad6b5ad6b5ad6b5ad
def7bdef7bdef7bdef7b
e739ce739ce739ce739c
ef7bdef7bdef7bdef7bd
7b7862a6a58eb5d2deab
d3cc158766ba85adf2f3
93371ec9e1c8d971f5a4
e52a621663eab18ad395
e599a4cf81db70a59ec6
487a9de319c1d64ed2ba
d182bed099d14d95ab8b
6ef9da48733ea6c61e49
e98c5d47b122e885ee41
5c6b3671028eb146bda5
2a6e6e888aa538a7a479
296e4cbed592d9d61935
6623b50967b2ea2cb05d
9eac33e2b744957130d9
321318b0cce1d05e71ba
5a6960ec2561b6f50bb9
be9ba336f2e6b5520898
