7bdef7bdef7bdef7bdef7bdef7bdef7bdef7bdef7bdef7bdef7bdef7bdef7bdef7bdef7bdef7bdef
39ce739ce739ce739ce739ce739ce739ce739ce739ce739ce739ce739ce739ce739ce739ce739ce7
bdef7bdef7bdef7bdef7bdef7bdef7bdef7bdef7bdef7bdef7bdef7bdef7bdef7bdef7bdef7bdef7
08421084210842108421084210842108421084210842108421084210842108421084210842108421
10842108421084210842108421084210842108421084210842108421084210842108421084210842
21084210842108421084210842108421084210842108421084210842108421084210842108421084
42108421084210842108421084210842108421084210842108421084210842108421084210842108
4a5294a5294a5294a5294a5294a5294a5294a5294a5294a5294a5294a5294a5294a5294a5294a529
5294a5294a5294a5294a5294a5294a5294a5294a5294a5294a5294a5294a5294a5294a5294a5294a
5ad6b5ad6b5ad6b5ad6b5ad6b5ad6b5ad6b5ad6b5ad6b5ad6b5ad6b5ad6b5ad6b5ad6b5ad6b5ad6b
6318c6318c6318c6318c6318c6318c6318c6318c6318c6318c6318c6318c6318c6318c6318c6318c
6b5ad6b5ad6b5ad6b5ad6b5ad6b5ad6b5ad6b5ad6b5ad6b5ad6b5ad6b5ad6b5ad6b5ad6b5ad6b5ad
def7bdef7bdef7bdef7bdef7bdef7bdef7bdef7bdef7bdef7bdef7bdef7bdef7bdef7bdef7bdef7b
e739ce739ce739ce739ce739ce739ce739ce739ce739ce739ce739ce739ce739ce739ce739ce739c
ef7bdef7bdef7bdef7bdef7bdef7bdef7bdef7bdef7bdef7bdef7bdef7bdef7bdef7bdef7bdef7bd
4a1284a1284a1284a1284a1284a1284a1284a1284a1284a1284a1284a1284a1284a1284a1284a128
09041208241048209041208241048209041208241048209041208241048209041208241048209041
e52a621663eab18ad39593371ec9e1c8d971f5a4d3cc158766ba85adf2f37b7862a6a58eb5d2deab
6ef9da48733ea6c61e49d182bed099d14d95ab8b487a9de319c1d64ed2bae599a4cf81db70a59ec6
296e4cbed592d9d619352a6e6e888aa538a7a4795c6b3671028eb146bda5e98c5d47b122e885ee41
5a6960ec2561b6f50bb9321318b0cce1d05e71ba9eac33e2b744957130d96623b50967b2ea2cb05d
d54722d2755ad33291efc3d35aede340f486b4b136d09ee85c94f9a9ac3cbe9ba336f2e6b5520898
1090d9ce45998ad9eedb8a02930ca17d8831f697a6674da10fce99cb9ccb9d4c327344ee5f121b7b
5582639336c6b988f45b372ad512fc648965a634eea414efb2135a97f1535374dad349e2b99e0a79
8be266e0f33443cadccf09885cf57164af3e9debe4fa817569dc83b55bb1316b5ec6a9b18e9b8963
5e3ace7654da6fad0cf6c10fbd2274a8479ee86548de3917377e463cea2553cccc553a4ef131e2d3
7ee26b06927a6c2b16a992a49e3f1b494a549862bbc33eedb4a894f90cb87aab3eb73dade463a682
0876d5bc9c6291a9de3b1eac9d30fc9296915b89c946340b69210925a9a37eed6b9cd4b35592a689
d583c2774b4098ceacfa674882e4863bc453a88c928c24907125746990411e74f6558cb8571d5114
890f92d0694ca9743fba46943314a679e8cb62e8a35970b59479f73790d27bf9b0c434d463c34a5d
ce19d0936daa511d45573ef5764d6ce2f58998b7470fd79d9da325226e54ecf248bd7cba5ada5cca
eac45cbe2121d787d5077de4b1730979b131b4751a936606ba59c2de6c34a25b6bb6b6c9d950954a
0d356e5c64405680e98643cbae6c573742aecba3c6d19922f2a254d23344ef0fa975a53bc886186a
aa18b886c69cfb1306f6ce356d9eb65098d2f505def21618b596cb5d76dd20712315f8119186a6da
e1b3acf13ddaf6ca9553536cf6d884a099a50d4a7b0d5d72cd1c6334adbc45387aa3b3cc888459b7
548af9ab844185da06c12549669caab0f33e44fd8af46abf634b5631f749e10360db53b214123ef9
790c9b9c546565d97093330f44d9017cb354ca4fc23883adedcf48b1232c64dbd3a5976b4e9d72fd
677912895ba44c4d21077f422b05113aea4a9f5c79ae6b643a1a977aa024b44dddcd845a18ac0b73
7c4b720aa4ac9a28cd1159c69a5061416537b3546e83b9128661a5841891425ad3d8b6b9fa21c9e3
a2b99ce4696bc5a8bf18b4c729dec1c92a15b2afe17564af5c54cc860572a1932e2e8154ba34722b
1ab43658e82aa65625b7ed127bd8366e1b4d5514dd89d0bd766e09cc993620ee9e93ab26a2d4692a
c18744953a64784a8e45b0d07ee4fd10b061c77979656e44b86cc83b4d6baae274a585627aadaf58
3d56f894ad798254e09489b55aa2d39c6af5d8243af8bd2a4655d1a4d70b3d1bd49538254ddbd07c
4d723e9a31edd438b25a3edbb330fcdb471d4873ba96bda7843d77da4f0b36135c6884de033ebd48
a48266ad5d8f22a973840a2a97d113bac96124659ab42255a2c3088e16a279633ee6f26e863c5e37
995ec4e1f54c8c66ccd11e0a5abf9c3f3884c71d4c9f2a95f421e4fd11fb2998b5d423abd422584a
911f4d88bcbacb1e512d8e6f895981ee6fd09d2ab9969528ec33c7a6f595c1b15d2131d89b5c5956
a472f2a2f595bac8b376dde6aa6a764890d4a6d57e2a266faf2290f493bc4cd4ccc67c535922db19
c619b10aab1732c96a45b5382a35faabf9809c8a1e657a56cf5868d7b65c25df32d3981a4e616826
a094ae2f963e273212dc1626de8ecb223848c97252d6d491ac6b0885b33c5b1915677d8d7513ace5
e4a2a497b6a24d59724b58e6a4c98fa5b18ca8422103a9e562e06471d4938890a96d6d19265199a4
8d15153249988a7330551db918eb6864b79b62f813d2be0925385313c86ba1adc0aa3448576c452d
cb396a88353610b9f62a1ecf9788546598423538d9d031db46d106565944d15387cc85c8d4c09f39
d4eb6d599578945344fbedf9751101644e141ed38c472584f595f58e53581526fbe087d71e78889d
8c9856b2ab49758e0f172f7145cd14b98431185cc0b894e5edd61577da21d344bb99483d78450d6f
e88784051995085a3f03af64b9b316dad93ea0c7a0ad29ec73dda64607911e5680912c3e56791b13
54db4c616cd723320d2a8df2928c58a2d3c98d7d7ab05993040e5e1512d64cb95958d93a9fc79783
c0f2b08439b58c6e07099247c20724e46bb406cad903d676a6a09192debaeae54c0a2de3098c1131
d0659cda22a9e627c5996accc3c7024909c5ca3c69dec789050d2dce2a261930d362e81ea23dd742
ccc3c25a8918f48b2ec65a2eb53dacdafad62e7cb9e6d3c945527316b72b170cab2e3d32f7de5858
522d39e1bbd1054e5d1641048cb3722b647ce9eaa5a758e89da9352a9858646982c8328aa5b221e4
5448240e418ce731504adc59834878a563552547e998415396363666ce93c51982f62fadcd642567
0b67a49e343b14558b286ccba6b5835f50abac251d9afaa658b9d166850611c526d8e55533254a22
19b0892021d86ccb6ac6eeb68574235a4ac4e0d231332a090991b62886652a14c13f617c5f225f75
5a10b7e4d78b1354064facf4bd0933d69a55563d09ba63ef682f564c70369da23660f4a192dadba5
625b61c8b7c87ab21732a8f7d20a2811964b4aaa6daf3b17281d0f3c9df9994a6d357c64d769599b
7e14524511d6958b2ea1b30224d33625533d070bedda56da5d61354edf52447354d39213cf45ab3b
3f6972d86921a6d23c5124c641710d0ed3520a59899bb118f3ab79808882e0d4c4e99b3a466620c1
ec704d68f433cc5492d765cfa2c454366b85c4c94f2942530f5956c8b32fb4d1c99b81c3e7c6ecb7
7a5792b4d3ed9fa12636d48e9629b2694fab0a3363366d12932ea614a8935579bd5d8a7a473ab0bb
d99256b07be4d4a4d3b3d9ca6e609c5cb7dd522233de6990710db5a41999a5a2f786421d12bc4d06
6d352dc6cf2b5a6ede25d366f963723b1051d488163b6c2cc4a599236a9b0a83a430b52ef77b4b68
798d7ba1285256a9e082dde21e69678beec9a4fc3cc5359b2831639c0cb9220ab2a0ecec92b32347
ab6435bd1cc86eb9a0d4a539362d7c3a6da0e9a4a63941f707e895bd4455ae46f484e2bd8dd28af7
bc9945298a970fa7d67828b8508e25652464d0edd3736e50e13b22ddde599a5a6ea793ea1a1dea62
a486a570d8e5eaf118c47e791af59825afcae2542c5630d23de703a1d94ce512d4e5f43634820fab
d8552b454b39df22487451e54bda3526d4a42cbaee383459fd7e791476dd8e689c89ba3178ca3ed7
351a8513941bc314f7565c50978c67e04f619361216e6627266edb5c5067ed25a1b50b096d2a6648
3d78fb5517c44416a584a609a685a61145aed6f578e4ca2d2b6cd4bce129d32bc5a8c30e07333c22
eef61bd1ed26d45bd1e95e72ba0f4479a593645a2e469aae57a8473b72440949546102d8c92b6225
09968cbe8d8a9f414438cd6daaca29e355618527ca898c55b45515258909ed49b963261d5bc18c2c
360e6676ada88c8630ad2333636bb3b6983bb799410e17a12f42c46a1f7145f13510f2cc6c8c9b2b
8d4e9175b6b065932ba6c3663d9f638ab2f5a8380b4a3de86ca9387c7493b698b396afd988564d87
9751b3bf7430f980a5642f0acbb6482603d28a9c60d7c251ebeadb145127668f20c7510c57d9bc6c
48b4d8f11bbd43c5bf4c096cba4f2b4e39dc2f9dcd9710edf721335b90e35d673626434362d34ac7
d44727e2856d591af3644a9f12af65c132b55da2e452b8b0eca46d8956a32f29ae22217d4f20dee4
150739efb7e36fc6219949b0f69e91962e2e2968d5688d0c735da85d8942dd9370b2ca2a946d717d
16119b8621bd725495369a944abf9a9e8af0db8b4acec5b6923447b172dcec54632f940bdec10576
d3d6508cd3cc69844f579dc45d54a96d59dce32d44f022238b687bc175e395d952f5858e33d29c62
bcae13af06d5df78e86c3176c621b826945b0db6de2e4372566589ca4c43d66691570de1fb22bf52
cd6356b191df35d24a4538683976da8a5f36b7943ae22ab7852602f16a7ce863343f42dd6c52d12c
c50fb8e9879deb118ea4ae8c531297c9fb64cc54c683c8c8fb9a8213d923cf2bd2589b660d57c884
10d7b7c69de4d067a2cbd294a9c49dee778cbd34ba2853bdb99927590cfc88c8bdf2fc3f5ade2d69
c04a393759c9f141b74c9946737749d573a6b30240e7d60efa54af9ed2426e103323011d2e330d7a
42c6f2e632b4aada2438e60556442d8de721e43288f6a95d02be95a9f268cd8c819f6d8b5b8086ed
ee381d6fb7248ab484fc5e658d70b28a2ad5e94392b336b28d0dcb98d825b53276a7581a8260e64b
305fbdcab3cbd595bee142952e1b85cd332e57b2bda63e133a4b16d1a0f5a1b1443f2f29293b96a3
9b7a7d7484ecc99c5319a197cea508a0ed5472cbceef5da14b49edc7df138a0e66d275d5ac9e98a5
1965d51e2b3ede9e3e71d8f79c91958a92d189a29869cb234d424cf11e8799b4d63cc3c279548591
be3a82cf41952740a54a8d3b99a14d42e9d7e0d61d58dad58d6b6317d5e3135411dc82ec8d43539c
eec389927a99f67de6ed13234106dcc8c533e04c415e7d937c5a9e5ec8ec216d1d552141fb6b0cf2
584361abbab8d595c5174b19713d7dda74bd6d8dcce97b70272f4f9c60cd4648a463574d574110f8
7f6c85dcb14c93450c639e9828eecb0afbd92fb2e22a9b594a59b073a457ab68a3893626fa4c51fd
4714d6ae68a92cdee2437d8bac6b8b9272c30cbd2c515b64c93e6c2c25035993a0965b3b42d99694
11d92be0bb34ef443e8f5bd51e31834658dcb19be92f35cb2b9238cc8651235f2dc6337d8544d45b
9a8cceae931ac38ae44db97712eb57a0f3b661128a5f21284525ad33f33668a958db01d68abba6fb
da0d3cd9e1c6c47eb36ada2a3adaaa28aa77c42a57449aa5f6bad21dc428e9ab423ea19dcebaa66a
25295cc8f8e17aa262595a6379b2b52be491e2d3c9eb3276c4d2fb529782672284b4f5e26f7d4901
7d541088524e9a569582486f25f79323ea8444a74dd5865159225a3435f5ccca18d7235bc680d0fd
50f87b98d37d2b7595159111c2346427347a5166d0a7d96a486732840b2bbcd4639e345a538468a9
19c9ba577b576af294278a333a87023586b3e257d2595a90384850a530d2268f33e2444af661596a
1142a7c62325a54ee98153e8292949a56272e5a1cb04869de6994574444d4908cab5275cdecac83b
3c7a9b646ceee699c697a8ae37d8c72a5e14b5a8361950c96130b2b0c5384d82adef6b31432304f6
25b6566d45335985842bd1c8c56fa5bccd248df4a4d21b046318b5432cba3152aa90f89999bb0c33
b62524ef58e50c67e443e0b3a14823e60cd1a2c93a96c9aa519c42495fadcc7a6ebe74a88b9cf139
a9de9db169df17731999af052daed3410431618715ec5376951d2499e94a5e8984d6eb61cc81299b
65b8ab2476a8b1c0cda5671455dcd54d2f27d164a3fba3b786e8f33e7272092f1497875bd8509cdb
3326d1a735df4ead673112dfbc14a5ddb863514dbceb131af859469b457630c742c746ca2e93d284
45998211122a6383f5eb28743d4af97c8786b62d0d92a91112df156ae9698e24869775ef136e1964
2444cca543d26e2c5382112362b59aa622c5a0c6e9a7b6b28d69eeb15f85e2cbdd9a27e9f8a5e6a6
1a307c505aa745c3adb8a2e99699bd29fa75883592e732229818b699eb1de690cd4f08296296b739
494b75b554167b99c5b312e396b633d5de75e5bb42128a96437e93538558ce63beac5cd649115d48
b9cca8a51cab0461cd4a466aa89de910b77ac694d71aa24925cf4495658768e2a79f5942144df2c7
ef5ab7c6b87c861dae971544db8ca1befaf32adcd311d8bead09d851b71460d03d3c419e1e27ad2c
ef38f52227e0eeba6661485461c87416eb908c9a2d5312d02cc36dd418d8ca0c333f6ca27aac35e6
396c6e7025b8b6da5138a33bccdd7ac4d395682212873dd8434eee442f2764d41b096aa50b35731a
30b0f90f414e86ba73b545da449192669886d081eb46737443acac2e1aa27e7b76d09b56ba7c61a6
13328eb51256113332ea4253cad591c28fa3ef5bee8bad951b4973d6ef12464dc91ca9a72dae9c37
