7bdef7bdef7bdef7bdef
9dc05269832f4156c068
01ed38f75555c8fb882f
4c861ad577b9a0908407
0c6f6a2a9753c0314086
146925caa139d222dc21
818c41a931076cd490c3
1ac2124c83ada0445510
818f65846cee25879fb5
88da2354c39560c4ca8f
39e427ded230225a1a35
95861e95ef01e864ecea
110e991c47d30f72eab9
a6ed4040f8a4eef056b2
dac1c13422ae24685aa0
7bf7139a914a86a81864
a5ac93c2f0ada69ac855
b4a7339c173d4d06cd57
0cae0b902404d71b94d0
2c1630d6d83d4f108857
b462981cdb79ed13dea2
be1562ef80d9e1d0db54
206e6b229216a9768e59
c30845de1120c7589f39
cc824a5eb4eca93cdd90
cf47d89d1796a5481096
98b9904087a08a798511
21a6b8f434646995daac
ead599332c84cad14ec1
3dc23659723ce03409f4
364709cdb69c2fc2566a
0817301744d90e659240
