7bdef7bdef7bdef7bdef
0840701edca1b5555c8f
140864c861ad577b9a09
2dc210c6f6a2a9753c03
490c3146925caa139d22
45510818c41a931076cd
79fb51ac2124c83ada04
4ca8f818f65846ced658
a1a3588da2354c39560c
4ecea39e512ded230225
2eab995861e95ef01e86
782b59088714a30bb0f7
342d505376a0207c5277
1960619c07089a115692
9a6b2155efdc4e6a4525
3425355e96b24f0bc2b6
5c6e5342d29cce705cf5
3c42215c32b82e409013
b44f7a88b058c35b50f5
3c3a1b6a968c530399e7
d52ed1cb37c2ac5df01b
18eb13e7240dcd645242
95279bb2156108bbc224
d4a90212d990494bd69d
a08a79851118fb13a2f2
646995daac98b9904087
84cad14ec121a678f434
3ce03009f4e9d599332c
9c2fc2566a3dc2365972
010e631240364709cdb6
045071cc55080f301744
b1cdae0eb194082b5f17
