7bdef7bdef7bdef7bdef
60434852e3486b5b8da4
0ce3a1158115a560ec62
30716bbc09186b1e8855
80c76c50d1098a16d69c
3c9f011884916b518c96
09b8201055dddecbd886
7b02c5c6c6b0da384b17
30ae3bda9060f492dcc4
12421d8c411ce41116a2
1886556ae69f3b591687
15ab245462a885305390
85f251daa614303b46a0
28227dda4600697b0e55
b8ee2b0a64484a23c924
18a4ba1e20b70e09da93
82d35e8574448345c69d
b7445ad022bce229dcf9
b4db1a4e92b4423b5e80
05e2980ac430791aa81a
5c80292f6d49a003c461
54ec1488b319aa3646b4
b8c0569a5709d849c687
286bdbd693b80156ad82
d8cb0111122d0a214cf3
d56518dc6208c60ac186
94ac8ccc771c28768ce5
108d7284660576888635
a10ec8136285eaca8821
142f4b2e75042ccb8eba
64ea9bb5a61e6161c417
e70c6a42645405db6922
