7bdef7bdef7bdef7bdef
9d1a691510a80c110ce0
28a139d922389bb8e061
262b025aedd9b0109e87
60cbd05650182d4a9462
d555723ee20be770149a
5dee68242101c07b7286
a5d4f00c5021932186b5
a84e7488b708431bda8a
4c41db352430c51a4972
20eb681115442063106a
1b3b5961e7ed46b08493
30e5583132a3e063d961
b48c0896868d623688d5
7bc07a193b3a8e7944b7
8c2ec3dcbaae656187a5
81f149dde0ad64221c52
68455a48d0b5414dda80
39a91494658186701c22
3c2f0ada69ac8557bf71
39c173d4d094d57a5ac9
b902404d71b94d0b4a73
0d6d43d4f1088570cae0
4c0e679ed13dea22c163
b177c06cf0e86daa5a31
3591490b54bb472cdf0a
22ef089063ac4f9c9037
252f5a76549e6ec85584
ec4e8bcb52a4084b6641
e641021e8229e6144463
99e3d0d191a6576ab262
5664ccb2132b453b0486
