7bdef7bdef7bdef7bdef
b5154ba9e018a0432643
92e5509ce9116e108637
20d49883b66a48618a34
092641d6d0222a8840c6
b2c23676b2c3cfda8d61
11aa61cab0626547c0c7
896f6918112d0d1ac46d
0f4af780f43276751cf2
38a5185d87b9755ccac3
b50103e293bbc15ac844
3844d08ab491a16a829b
7ee273522928cb030ce0
b592785e15b4d3590aaf
94e67382e7a9a129aaf4
95c17204809ae3729a16
82c61ada87a9e2110ae1
b462981ccf3da27bd445
be1562ef80d9e1d0db54
206e6b229216a9768e59
ab0845de1120c7589f39
cc824a5eb4eca93cdd90
88c7d89d1796a5481096
64c5cc82043d0453cc28
090d33c7a1a3234caed5
a74eacc9996426568a76
51ee11b2cb91e701804f
01b2384e6db4e17e12b3
a8407980ba2008731892
8ca0415af8b822838e62
d4c624f2721d8e6d7075
8036fac263b9a71ed6b2
