7bdef7bdef7bdef7bdef
90a53506b520ba318a37
1c0b1052d4ad40d98614
862c279046cec873cad3
cc668386d5d60d3a8154
d0ea291c8c9d294cd03d
8b410956e304244813a7
b9e7b2d6ea93749b58a3
1c28f2c4afd3e3a34676
d16c04474464074a6495
9c144546936bca3bd430
94ac0cb631e98e5b4cc9
0ead4ad2f125ca58d8ec
35e36a2fa81e3ada96eb
2888d09e471d884030f3
9840b944a02c2549c8b4
148e1b746b0743884e43
e76d7b968dd28e5b8e6a
2c220d86c838836a1207
38ad236430a10429d896
2d44baa0a59845b81409
9d8159d2263587899609
6de261dd2715406c8275
e0cd0bd0b6e8a264d0c1
88ad3cac66c6aa6388a0
23e4508ce38c4d694497
21345bd6b90de3601ea2
95c06e9205954a7188c0
3969724201dd0e3100e2
186b525676b8e8090a10
1def72cd5738026bc666
a8ae76c8d4390cd001e5
